unsigned char converted_model_noquant_tflite[] = {
  0x1c, 0x00, 0x00, 0x00, 0x54, 0x46, 0x4c, 0x33, 0x14, 0x00, 0x20, 0x00,
  0x1c, 0x00, 0x18, 0x00, 0x14, 0x00, 0x10, 0x00, 0x0c, 0x00, 0x00, 0x00,
  0x08, 0x00, 0x04, 0x00, 0x14, 0x00, 0x00, 0x00, 0x1c, 0x00, 0x00, 0x00,
  0x1c, 0x00, 0x00, 0x00, 0x74, 0x00, 0x00, 0x00, 0xb4, 0x13, 0x00, 0x00,
  0xc4, 0x13, 0x00, 0x00, 0x10, 0x19, 0x00, 0x00, 0x03, 0x00, 0x00, 0x00,
  0x00, 0x00, 0x00, 0x00, 0x02, 0x00, 0x00, 0x00, 0x34, 0x00, 0x00, 0x00,
  0x04, 0x00, 0x00, 0x00, 0xdc, 0xff, 0xff, 0xff, 0x0d, 0x00, 0x00, 0x00,
  0x04, 0x00, 0x00, 0x00, 0x13, 0x00, 0x00, 0x00, 0x43, 0x4f, 0x4e, 0x56,
  0x45, 0x52, 0x53, 0x49, 0x4f, 0x4e, 0x5f, 0x4d, 0x45, 0x54, 0x41, 0x44,
  0x41, 0x54, 0x41, 0x00, 0x08, 0x00, 0x0c, 0x00, 0x08, 0x00, 0x04, 0x00,
  0x08, 0x00, 0x00, 0x00, 0x0c, 0x00, 0x00, 0x00, 0x04, 0x00, 0x00, 0x00,
  0x13, 0x00, 0x00, 0x00, 0x6d, 0x69, 0x6e, 0x5f, 0x72, 0x75, 0x6e, 0x74,
  0x69, 0x6d, 0x65, 0x5f, 0x76, 0x65, 0x72, 0x73, 0x69, 0x6f, 0x6e, 0x00,
  0x0e, 0x00, 0x00, 0x00, 0x3c, 0x13, 0x00, 0x00, 0x34, 0x13, 0x00, 0x00,
  0x18, 0x13, 0x00, 0x00, 0xcc, 0x12, 0x00, 0x00, 0xf4, 0x11, 0x00, 0x00,
  0x34, 0x0d, 0x00, 0x00, 0x6c, 0x01, 0x00, 0x00, 0xa8, 0x00, 0x00, 0x00,
  0xa0, 0x00, 0x00, 0x00, 0x98, 0x00, 0x00, 0x00, 0x90, 0x00, 0x00, 0x00,
  0x88, 0x00, 0x00, 0x00, 0x68, 0x00, 0x00, 0x00, 0x04, 0x00, 0x00, 0x00,
  0x6a, 0xec, 0xff, 0xff, 0x04, 0x00, 0x00, 0x00, 0x54, 0x00, 0x00, 0x00,
  0x0c, 0x00, 0x00, 0x00, 0x08, 0x00, 0x0e, 0x00, 0x08, 0x00, 0x04, 0x00,
  0x08, 0x00, 0x00, 0x00, 0x10, 0x00, 0x00, 0x00, 0x24, 0x00, 0x00, 0x00,
  0x00, 0x00, 0x06, 0x00, 0x08, 0x00, 0x04, 0x00, 0x06, 0x00, 0x00, 0x00,
  0x04, 0x00, 0x00, 0x00, 0x00, 0x00, 0x00, 0x00, 0x00, 0x00, 0x0a, 0x00,
  0x10, 0x00, 0x0c, 0x00, 0x08, 0x00, 0x04, 0x00, 0x0a, 0x00, 0x00, 0x00,
  0x02, 0x00, 0x00, 0x00, 0x02, 0x00, 0x00, 0x00, 0x04, 0x00, 0x00, 0x00,
  0x06, 0x00, 0x00, 0x00, 0x32, 0x2e, 0x31, 0x32, 0x2e, 0x30, 0x00, 0x00,
  0xca, 0xec, 0xff, 0xff, 0x04, 0x00, 0x00, 0x00, 0x10, 0x00, 0x00, 0x00,
  0x31, 0x2e, 0x35, 0x2e, 0x30, 0x00, 0x00, 0x00, 0x00, 0x00, 0x00, 0x00,
  0x00, 0x00, 0x00, 0x00, 0x34, 0xe8, 0xff, 0xff, 0x38, 0xe8, 0xff, 0xff,
  0x3c, 0xe8, 0xff, 0xff, 0x40, 0xe8, 0xff, 0xff, 0xf6, 0xec, 0xff, 0xff,
  0x04, 0x00, 0x00, 0x00, 0xb4, 0x00, 0x00, 0x00, 0xb5, 0x8a, 0x55, 0x3f,
  0xec, 0xaf, 0xea, 0x3f, 0x12, 0xf6, 0xab, 0xbe, 0x8c, 0x10, 0x86, 0xc0,
  0xaf, 0x51, 0x71, 0x3f, 0xad, 0xc5, 0x6d, 0x3c, 0xe6, 0xa9, 0x06, 0x3f,
  0xc6, 0xe6, 0x04, 0xbf, 0xdf, 0x9d, 0x87, 0xc0, 0x9f, 0x95, 0x48, 0xc0,
  0x29, 0x95, 0x9e, 0xbf, 0x07, 0x71, 0x06, 0xc0, 0x3e, 0x66, 0x94, 0x3e,
  0xed, 0x79, 0x18, 0x3e, 0xa7, 0xff, 0xb5, 0x3f, 0xd9, 0x76, 0x54, 0xbf,
  0x71, 0xf9, 0xc7, 0xc0, 0xfe, 0x11, 0x13, 0x3f, 0x22, 0x15, 0x27, 0x40,
  0x74, 0x58, 0x0a, 0x3f, 0x93, 0xb0, 0x94, 0xbe, 0xd3, 0x60, 0xa1, 0xc0,
  0xea, 0x0c, 0x12, 0xbe, 0xf4, 0x7e, 0x20, 0x40, 0x61, 0xea, 0x6a, 0xc0,
  0x42, 0x8d, 0x34, 0x3f, 0xb8, 0x22, 0x59, 0xc0, 0x89, 0x5e, 0x06, 0xbf,
  0x65, 0x41, 0xbf, 0x3f, 0x7a, 0x61, 0xb1, 0xbf, 0x18, 0xf2, 0x79, 0x3f,
  0xda, 0x96, 0xe7, 0xbe, 0x0f, 0x30, 0x0e, 0xbf, 0xea, 0xfd, 0x02, 0xc0,
  0x55, 0x6b, 0x9f, 0xc0, 0xbd, 0x6c, 0x51, 0xbe, 0xc4, 0xa7, 0x71, 0x3f,
  0xe0, 0x2e, 0xc1, 0x3d, 0xcd, 0xbd, 0xce, 0xbf, 0x6c, 0x77, 0x42, 0x40,
  0x9f, 0x6a, 0x4c, 0xc0, 0x21, 0x23, 0xf2, 0x3f, 0x04, 0x05, 0x98, 0x3e,
  0xa1, 0xb3, 0x15, 0xc0, 0x9a, 0xb2, 0xca, 0xbf, 0xb6, 0xed, 0xff, 0xff,
  0x04, 0x00, 0x00, 0x00, 0xb8, 0x0b, 0x00, 0x00, 0xfb, 0x6c, 0x23, 0xbf,
  0xa6, 0xee, 0x8b, 0x3e, 0xdb, 0xaa, 0x77, 0x3e, 0xb2, 0x95, 0x04, 0x3e,
  0x51, 0x3c, 0xc5, 0x3e, 0x49, 0x58, 0x3f, 0x3f, 0xb9, 0xa0, 0x27, 0xbe,
  0x7a, 0xb8, 0x02, 0x3f, 0x48, 0x93, 0x6b, 0xbe, 0xb2, 0xf8, 0xfc, 0x3f,
  0x59, 0x86, 0xc3, 0xbf, 0xbc, 0xf8, 0x33, 0x3e, 0xa2, 0x94, 0x4a, 0xc0,
  0x9a, 0x23, 0x58, 0x3e, 0x5b, 0x0d, 0xa4, 0xbe, 0x1c, 0x07, 0x9b, 0xbe,
  0x96, 0xad, 0x3f, 0xbf, 0x54, 0x5a, 0x97, 0xbf, 0x15, 0xd7, 0xe2, 0xbe,
  0x28, 0x1c, 0xc3, 0x3f, 0x70, 0x31, 0x8c, 0x3d, 0x1e, 0x36, 0x8c, 0xbf,
  0x84, 0x69, 0x7f, 0x3e, 0x52, 0x16, 0x8e, 0x3d, 0xf9, 0x64, 0xa0, 0x3e,
  0x8f, 0x97, 0x24, 0xbf, 0x2b, 0xfb, 0x89, 0x3c, 0x28, 0x40, 0x02, 0x3e,
  0xa4, 0xb7, 0x80, 0xbd, 0x70, 0xc1, 0x70, 0x3e, 0x2e, 0x43, 0xef, 0x3c,
  0x68, 0x85, 0x65, 0x3f, 0x70, 0x43, 0x38, 0x3d, 0x51, 0xc2, 0xb8, 0x3e,
  0x93, 0x62, 0x34, 0xbf, 0x00, 0xca, 0xdd, 0x3a, 0xa1, 0xd3, 0xda, 0xbe,
  0x2e, 0xb1, 0x2f, 0xbe, 0x7d, 0xec, 0xa7, 0xbf, 0x76, 0x73, 0xe6, 0xbe,
  0xe5, 0xd3, 0x84, 0x3f, 0xe3, 0x7c, 0x3a, 0xbe, 0x96, 0x89, 0xf7, 0xbd,
  0x3a, 0x95, 0x72, 0x3e, 0xf2, 0x83, 0x3e, 0x3e, 0x20, 0x9f, 0x04, 0xbc,
  0x7d, 0xd7, 0x3b, 0x3f, 0xee, 0xfc, 0xfc, 0xbf, 0x00, 0x6a, 0x20, 0xba,
  0x83, 0x03, 0x46, 0x3f, 0x93, 0x03, 0xf0, 0x3f, 0x38, 0xd6, 0x4c, 0x3e,
  0x6c, 0x3a, 0x09, 0x3f, 0xfe, 0x7b, 0xee, 0x3e, 0xd5, 0x02, 0x40, 0x3f,
  0xea, 0xf3, 0xa4, 0xbf, 0xbc, 0x15, 0x63, 0x40, 0x1c, 0xa4, 0xec, 0x3e,
  0x38, 0x90, 0x1a, 0x3d, 0x5d, 0x71, 0x8d, 0xc0, 0x06, 0xd5, 0xc0, 0x40,
  0xe6, 0x6a, 0x8b, 0xbd, 0x60, 0x83, 0xa6, 0xbf, 0x20, 0x20, 0xca, 0x3f,
  0xf5, 0xe9, 0x65, 0x3f, 0xa7, 0x90, 0x6f, 0x3f, 0xa1, 0x5e, 0x88, 0xbf,
  0xc2, 0x6d, 0xb2, 0xbf, 0xf3, 0xbc, 0x92, 0xbf, 0xc4, 0x47, 0xf5, 0xbf,
  0xec, 0x03, 0x84, 0xbd, 0x6e, 0xb9, 0x46, 0x3e, 0x37, 0xeb, 0x84, 0xbd,
  0x6b, 0x85, 0x20, 0xbf, 0xa8, 0x6a, 0x59, 0x3f, 0xa9, 0x3c, 0x27, 0x3f,
  0x2f, 0xa5, 0x5d, 0x3f, 0x4a, 0x52, 0x04, 0x3e, 0x00, 0x0c, 0x51, 0xbd,
  0x00, 0x8e, 0xab, 0xba, 0xba, 0x6a, 0x16, 0x3f, 0x7d, 0x7e, 0x47, 0x40,
  0xa1, 0x16, 0x0e, 0xbe, 0xf7, 0x7c, 0xdd, 0x3f, 0x39, 0xa4, 0xe6, 0x3f,
  0x0c, 0xf7, 0x95, 0x3e, 0x6b, 0x65, 0x03, 0xc0, 0x42, 0xcc, 0x37, 0x3e,
  0x31, 0x10, 0xa9, 0x3f, 0xaa, 0xe9, 0x97, 0xbf, 0x9f, 0x96, 0x81, 0x40,
  0x84, 0x8a, 0x45, 0x3c, 0x00, 0xee, 0x64, 0x3e, 0xc3, 0x5c, 0x05, 0x3e,
  0xce, 0x59, 0xff, 0xbd, 0x6c, 0x59, 0x90, 0x3d, 0x8c, 0x23, 0x8e, 0xbd,
  0x95, 0x98, 0x52, 0x40, 0x5b, 0x3c, 0x28, 0xbe, 0x81, 0xbb, 0xe3, 0x3f,
  0xe8, 0x2f, 0x50, 0xbe, 0x66, 0x37, 0x90, 0xbd, 0xfe, 0xad, 0xb5, 0xbd,
  0x83, 0x4e, 0x94, 0xbe, 0x72, 0xcd, 0x5d, 0xbe, 0x6e, 0x6e, 0x94, 0x3e,
  0xbc, 0x8a, 0x42, 0xbe, 0x7b, 0xef, 0x15, 0xbe, 0xf8, 0xf9, 0x6d, 0xbd,
  0x90, 0x6c, 0xb2, 0x3c, 0x42, 0x32, 0xd2, 0xbd, 0xe7, 0x84, 0x91, 0xbe,
  0x8e, 0xaf, 0xfe, 0xbd, 0x6c, 0xb8, 0x5e, 0xbd, 0x0a, 0x55, 0x3b, 0x3e,
  0x26, 0xb6, 0x01, 0x3e, 0xf4, 0xde, 0x42, 0x3e, 0x75, 0x0d, 0x5e, 0xbe,
  0x63, 0xc1, 0x0d, 0xbe, 0x9f, 0xa3, 0x88, 0xbe, 0x2c, 0x3a, 0x52, 0x3e,
  0x7c, 0xcf, 0x84, 0xbd, 0x06, 0x13, 0xfb, 0xbd, 0x33, 0xe9, 0x35, 0xbe,
  0x70, 0x30, 0xba, 0xbd, 0x04, 0x1e, 0xaf, 0x3d, 0x70, 0x64, 0xa6, 0x3c,
  0xcc, 0x64, 0x5d, 0x3e, 0x2a, 0x53, 0x48, 0xbe, 0xf1, 0xad, 0x88, 0xbe,
  0xa5, 0x12, 0x81, 0xbe, 0x4e, 0x9a, 0x88, 0xbd, 0x08, 0x6d, 0x69, 0x3d,
  0x80, 0xa9, 0xaa, 0x3d, 0x18, 0xfb, 0x5e, 0x3d, 0x7a, 0x4b, 0x8e, 0xbd,
  0x7c, 0x5d, 0x94, 0xbd, 0xea, 0xf4, 0x07, 0xbe, 0x36, 0x21, 0x44, 0x3e,
  0x8e, 0x8c, 0x11, 0xbe, 0x38, 0x6b, 0xe9, 0x3d, 0x70, 0x80, 0x93, 0x3e,
  0xc4, 0xfb, 0x4d, 0x3e, 0x16, 0x0f, 0x7d, 0xbe, 0xe0, 0x8f, 0x7e, 0xbd,
  0x05, 0x81, 0x84, 0xbe, 0xd0, 0xb8, 0xb3, 0x3c, 0xe0, 0x89, 0x0a, 0x3d,
  0xea, 0xf1, 0x3c, 0xbe, 0x8a, 0x92, 0x08, 0xbe, 0x5a, 0xac, 0xf7, 0x3f,
  0x48, 0x0d, 0xa3, 0x3f, 0xbd, 0xa7, 0x8c, 0xbf, 0xe9, 0x34, 0x23, 0x3f,
  0x4e, 0xf1, 0x02, 0xbf, 0x86, 0x1c, 0xc4, 0xbf, 0x40, 0xc3, 0xea, 0xbf,
  0x00, 0xd6, 0x04, 0xc0, 0xcc, 0xc3, 0x5a, 0xbe, 0x64, 0xaa, 0x00, 0xc0,
  0x22, 0xbe, 0x0a, 0xc0, 0x30, 0x37, 0x8c, 0x3e, 0x28, 0x67, 0x55, 0xbe,
  0x05, 0xe7, 0x38, 0xbe, 0xaa, 0xc4, 0x04, 0x3e, 0xf4, 0xd0, 0xd8, 0xbf,
  0x9c, 0x5e, 0x08, 0xbf, 0x1b, 0xa1, 0x58, 0xbe, 0x84, 0xdc, 0x84, 0x3e,
  0xb1, 0x6a, 0x95, 0x3f, 0x76, 0x1c, 0x4b, 0xbe, 0x4a, 0x71, 0x9a, 0xbf,
  0xa6, 0xb8, 0xc9, 0xbd, 0x08, 0xac, 0x91, 0x3f, 0x55, 0x44, 0x1a, 0x3f,
  0x65, 0x4f, 0x3a, 0xbf, 0x4d, 0xd9, 0xc9, 0xbf, 0x08, 0xd2, 0x66, 0x3e,
  0x48, 0xb4, 0x99, 0x3e, 0x9c, 0xf2, 0x19, 0x3e, 0x45, 0xc8, 0x6a, 0xbe,
  0x8f, 0xc3, 0xaf, 0xbf, 0x30, 0x87, 0x1d, 0x3d, 0xa8, 0xdd, 0x5b, 0xbf,
  0xb8, 0x5c, 0x20, 0xbf, 0xe8, 0x6d, 0xb7, 0x3d, 0xc7, 0x48, 0xf9, 0x3e,
  0x67, 0x16, 0x9d, 0xbe, 0x85, 0x83, 0x3d, 0x40, 0xed, 0x47, 0x8f, 0x3e,
  0x6f, 0x3b, 0x2f, 0xc0, 0x5c, 0xc3, 0x61, 0xbe, 0x0e, 0xa3, 0x84, 0xbd,
  0xa2, 0x32, 0xce, 0x3f, 0x75, 0x7c, 0x75, 0xbe, 0xce, 0x41, 0x2d, 0x3e,
  0x0b, 0x00, 0x50, 0xbf, 0x14, 0x86, 0x5d, 0xc0, 0xec, 0xac, 0xa1, 0xbd,
  0x78, 0xf9, 0x7e, 0xbf, 0xb2, 0xa9, 0xd9, 0x3e, 0x0c, 0x1a, 0x1a, 0xbf,
  0xe3, 0x24, 0x17, 0x3f, 0xd1, 0x47, 0x9e, 0xbf, 0x34, 0xe3, 0x36, 0xbf,
  0x4b, 0x1e, 0xf9, 0x3e, 0x27, 0x31, 0x00, 0xbf, 0x6b, 0x5c, 0x89, 0xbe,
  0x94, 0x2e, 0x99, 0x3d, 0x65, 0xc2, 0xeb, 0x3f, 0x21, 0xfc, 0x36, 0xbf,
  0x30, 0x3d, 0x61, 0x3d, 0xd4, 0xab, 0x3c, 0xc0, 0x3b, 0xe3, 0x07, 0xc0,
  0x6e, 0xe4, 0x99, 0xbf, 0xd3, 0xf2, 0x07, 0xc0, 0x77, 0x0a, 0x4c, 0xbf,
  0x97, 0xb0, 0x64, 0xbf, 0x94, 0x4e, 0xd7, 0x3f, 0xed, 0x46, 0x1f, 0xbf,
  0xf0, 0xa0, 0x81, 0x3c, 0x19, 0x6e, 0xd9, 0x3f, 0xaf, 0xe1, 0x5a, 0x3f,
  0x39, 0x11, 0x78, 0xc0, 0xa8, 0x83, 0xfb, 0x3f, 0x90, 0x13, 0xd5, 0xbf,
  0x36, 0xd3, 0x64, 0xbf, 0x58, 0xc2, 0x94, 0xbe, 0x00, 0xbc, 0x9e, 0xbc,
  0x08, 0x69, 0xb1, 0x3d, 0x3f, 0x9b, 0xd0, 0x3e, 0xe7, 0x73, 0x06, 0xc0,
  0xe8, 0x6f, 0x53, 0x3e, 0x13, 0xb1, 0x71, 0xbf, 0x99, 0x86, 0x48, 0xbe,
  0x88, 0x9e, 0x07, 0x3e, 0xe5, 0xcf, 0xf1, 0x3f, 0x51, 0x91, 0x65, 0xbe,
  0xfd, 0x0a, 0x1a, 0x3f, 0x70, 0x37, 0x95, 0x3f, 0x47, 0x7f, 0xdf, 0xbe,
  0xc8, 0x42, 0x82, 0x3e, 0x93, 0xdb, 0x41, 0x3d, 0x96, 0xf7, 0x0d, 0x40,
  0x3c, 0x7d, 0x89, 0x3e, 0xee, 0x34, 0x81, 0xbe, 0x1f, 0xbb, 0x92, 0xbf,
  0xf5, 0xd3, 0x47, 0x3d, 0x80, 0x89, 0x71, 0x3c, 0xe0, 0x9b, 0x09, 0xc0,
  0x06, 0xf9, 0xc9, 0xbd, 0xb0, 0x7f, 0xdb, 0xbd, 0xbc, 0xbe, 0x12, 0xbe,
  0x7c, 0xd9, 0x60, 0x3e, 0xcc, 0xc4, 0x58, 0xbe, 0x3e, 0x79, 0x26, 0x3e,
  0x7c, 0x77, 0xe9, 0x3d, 0x33, 0x2e, 0x54, 0x3e, 0xd4, 0xec, 0x4c, 0x3e,
  0x2e, 0x85, 0x1a, 0xbe, 0x00, 0x0e, 0x71, 0xbb, 0xe2, 0xfc, 0x95, 0x3e,
  0x08, 0xf4, 0x64, 0x3e, 0x94, 0x08, 0x4c, 0x3b, 0x8e, 0x3f, 0x47, 0x3e,
  0xcb, 0xad, 0x45, 0xbe, 0x55, 0xf3, 0xa9, 0xbe, 0x81, 0xde, 0x95, 0x3c,
  0x67, 0xb6, 0x00, 0x3d, 0x6c, 0xfe, 0x62, 0xbe, 0x5c, 0x6a, 0x50, 0x3e,
  0xb5, 0x7a, 0x0f, 0x3d, 0xe8, 0xd0, 0xa5, 0xbe, 0x79, 0x50, 0xaf, 0x3d,
  0xe9, 0xa1, 0x4f, 0x3c, 0x6c, 0xa1, 0xbd, 0xbd, 0x75, 0x16, 0x01, 0x3c,
  0xad, 0xe9, 0x80, 0xbe, 0xcf, 0xfb, 0x4b, 0xbe, 0x48, 0xb1, 0x83, 0x3d,
  0x17, 0x31, 0x88, 0xbe, 0x33, 0x1d, 0x12, 0xbd, 0xa0, 0x36, 0x54, 0xbe,
  0x28, 0x1f, 0x3a, 0xbe, 0x00, 0xb5, 0xbc, 0xbd, 0xea, 0x9e, 0x13, 0x3e,
  0x3a, 0x50, 0x17, 0x3e, 0x50, 0x97, 0x91, 0xbe, 0x2e, 0xb6, 0x34, 0x3e,
  0xb5, 0xb3, 0x92, 0xbe, 0x88, 0x7d, 0x68, 0xbe, 0xb7, 0x6b, 0x5e, 0x3e,
  0x6b, 0x81, 0x29, 0x3e, 0x04, 0xbf, 0x44, 0x3e, 0x1e, 0x49, 0xcd, 0xbd,
  0x90, 0xe7, 0xee, 0x3d, 0x84, 0x51, 0xc4, 0x3b, 0x38, 0x64, 0x24, 0x3e,
  0x90, 0x03, 0xbc, 0x3d, 0x7d, 0x6b, 0x78, 0xbe, 0x4f, 0xbd, 0xc3, 0x3f,
  0x91, 0x52, 0x0c, 0x3f, 0x97, 0xc6, 0x58, 0x3f, 0x75, 0x92, 0x67, 0x3f,
  0x58, 0x72, 0x10, 0x3f, 0x27, 0x18, 0x36, 0x3e, 0x23, 0x63, 0xa7, 0x3f,
  0x10, 0xc3, 0x71, 0xbe, 0x7c, 0x98, 0x08, 0x3e, 0xa0, 0x7e, 0xdd, 0x3e,
  0x8b, 0xc1, 0xc0, 0x3f, 0x3c, 0xec, 0xc8, 0x3d, 0x12, 0xc2, 0x80, 0xc0,
  0x6c, 0xe6, 0x8f, 0xbc, 0x2b, 0xd5, 0x84, 0x3f, 0x79, 0xce, 0x94, 0x40,
  0x91, 0xc1, 0xc3, 0xbf, 0x13, 0x58, 0xc1, 0xbf, 0x3b, 0xb3, 0x0a, 0x40,
  0x58, 0x24, 0xbb, 0x3d, 0xc0, 0xe0, 0x7b, 0xbc, 0x1f, 0xb3, 0xeb, 0x3e,
  0x38, 0x9c, 0x5d, 0xbe, 0x10, 0xfc, 0xc9, 0xbf, 0x76, 0xfb, 0xc4, 0x3e,
  0x75, 0x24, 0x35, 0xc0, 0xf2, 0xbe, 0x8f, 0x40, 0x4e, 0x0a, 0x84, 0x3e,
  0x80, 0x5a, 0x8a, 0x3c, 0x2e, 0x74, 0x80, 0xbe, 0xa7, 0xf1, 0xcd, 0x3e,
  0x57, 0x00, 0x93, 0x40, 0x42, 0x61, 0x93, 0x3e, 0x72, 0xf2, 0x3d, 0xbf,
  0x57, 0xf9, 0x1f, 0x40, 0x49, 0xe8, 0x6f, 0xbe, 0xd8, 0x7d, 0x43, 0xbf,
  0xd6, 0x3c, 0xf9, 0x3e, 0x16, 0xe4, 0xf4, 0x3e, 0xbe, 0x40, 0x99, 0xbf,
  0xd4, 0xda, 0x88, 0x40, 0x29, 0x44, 0x12, 0x3e, 0x4d, 0xcc, 0x6a, 0x3e,
  0x6d, 0xe1, 0x93, 0x3f, 0xc0, 0x08, 0x91, 0xbb, 0xc8, 0xf6, 0x6f, 0x3e,
  0x5f, 0x2c, 0x87, 0x3f, 0x4a, 0x3c, 0xdb, 0xbf, 0x34, 0xf5, 0x22, 0xbe,
  0x6f, 0xa4, 0x92, 0x40, 0xcb, 0xbc, 0x99, 0xbe, 0x78, 0xc8, 0x30, 0x3d,
  0x45, 0x56, 0x8e, 0xbe, 0x2c, 0x2b, 0xf6, 0x3d, 0x32, 0x79, 0x28, 0xbe,
  0xa4, 0xbe, 0x82, 0xbd, 0x52, 0xc3, 0x42, 0xbe, 0x13, 0x63, 0x8b, 0xbe,
  0x90, 0x9a, 0x0b, 0x3d, 0xbe, 0xf9, 0x84, 0x3e, 0x20, 0x80, 0x09, 0xbd,
  0x18, 0xb2, 0x90, 0x3e, 0xd8, 0x1c, 0x1d, 0x3e, 0x80, 0xb6, 0x02, 0x3e,
  0xc0, 0x88, 0xc8, 0x3b, 0x09, 0x85, 0x3f, 0xbe, 0x64, 0x47, 0x6e, 0x3e,
  0xa0, 0x7f, 0x4a, 0xbc, 0xd8, 0x25, 0x7e, 0xbd, 0xe2, 0x4e, 0x6b, 0xbe,
  0x36, 0x77, 0x55, 0xbe, 0x7e, 0x10, 0x84, 0x3e, 0x1f, 0x2d, 0x99, 0xbe,
  0x28, 0xe4, 0x2e, 0xbd, 0x9c, 0xf3, 0x70, 0xbe, 0x62, 0x02, 0x23, 0x3e,
  0x2a, 0xcd, 0x8a, 0xbe, 0xdd, 0xec, 0x07, 0xbe, 0x18, 0x9c, 0x42, 0x3e,
  0x30, 0x82, 0x3d, 0xbe, 0xc0, 0x94, 0x56, 0xbe, 0x40, 0xae, 0x70, 0x3e,
  0x18, 0x2f, 0x30, 0x3d, 0x73, 0xd9, 0x2d, 0xbe, 0x4c, 0xf8, 0x33, 0x3e,
  0xb0, 0x03, 0x34, 0xbd, 0x62, 0xce, 0xb0, 0xbd, 0xd2, 0x37, 0xbc, 0xbd,
  0xc2, 0x67, 0x58, 0xbe, 0x93, 0x06, 0x8e, 0xbe, 0x9f, 0x4f, 0x96, 0xbe,
  0xc2, 0x6d, 0xe9, 0xbd, 0x40, 0xf3, 0x9c, 0xbb, 0xc4, 0x2e, 0x0c, 0xbe,
  0xb0, 0x31, 0x30, 0x3e, 0xd4, 0x74, 0x28, 0x3e, 0xd4, 0x43, 0xf6, 0x3d,
  0x76, 0xee, 0xf2, 0xbd, 0x6e, 0xa7, 0x98, 0xbe, 0x40, 0x31, 0xc5, 0x3b,
  0x94, 0xe3, 0x1c, 0xbf, 0xa5, 0x98, 0x61, 0xbb, 0x55, 0xda, 0x62, 0xbf,
  0x42, 0xc1, 0x8f, 0xbd, 0xba, 0xda, 0x4f, 0xbf, 0xfb, 0x45, 0x78, 0x3e,
  0x8d, 0x5c, 0xe4, 0xbd, 0x3d, 0x0c, 0xc1, 0x3e, 0x08, 0xf2, 0x16, 0x3d,
  0x9c, 0x97, 0x46, 0xbf, 0x69, 0x42, 0x89, 0x3f, 0xa7, 0x07, 0x38, 0xbe,
  0x50, 0x47, 0x1d, 0x40, 0x7d, 0xa5, 0xcf, 0xbe, 0x20, 0xa6, 0xc3, 0xbe,
  0xb2, 0xa1, 0x70, 0xc0, 0xdc, 0x8e, 0x45, 0xbe, 0x94, 0x30, 0xf1, 0x3d,
  0x12, 0x56, 0x97, 0xbe, 0x31, 0xa2, 0x0d, 0x3f, 0x80, 0x35, 0xec, 0x3d,
  0x3a, 0xe4, 0x38, 0xbf, 0x5d, 0xb6, 0xca, 0xbe, 0x72, 0xb1, 0x6e, 0xbf,
  0xbb, 0x95, 0x38, 0x3e, 0x56, 0x70, 0x38, 0xbf, 0x1e, 0x1a, 0x3c, 0xc0,
  0x90, 0x8b, 0xd5, 0xbc, 0x70, 0x97, 0x94, 0xbe, 0xe9, 0xae, 0x8d, 0xbe,
  0x61, 0x88, 0x8b, 0xbd, 0xd0, 0x9b, 0x23, 0xc0, 0x54, 0xb9, 0xae, 0x3d,
  0x1a, 0xef, 0xd9, 0xbd, 0xc9, 0x39, 0x08, 0xc0, 0x0e, 0xdc, 0x1c, 0x3e,
  0x89, 0x54, 0x25, 0xbf, 0x1b, 0x82, 0x38, 0xbf, 0x7b, 0xdd, 0x44, 0xbe,
  0x82, 0x1f, 0xac, 0xbe, 0xb0, 0xa3, 0x24, 0xc0, 0x1b, 0x51, 0x2b, 0x3e,
  0xc0, 0xdd, 0x10, 0xbe, 0x50, 0x78, 0x8f, 0x3f, 0xa4, 0x99, 0xc4, 0x3d,
  0x26, 0x50, 0x85, 0x3e, 0xb4, 0x38, 0x95, 0xbe, 0xd9, 0x3f, 0xe1, 0x3d,
  0xf8, 0x57, 0xb0, 0xbd, 0x85, 0x40, 0x1c, 0xc0, 0x5a, 0xd9, 0x00, 0x40,
  0x28, 0x02, 0x65, 0x3f, 0xfd, 0x78, 0x14, 0x3e, 0x61, 0xb6, 0x06, 0x3f,
  0x66, 0x7e, 0x3b, 0x3d, 0x19, 0xf9, 0xd3, 0x3e, 0x9f, 0x74, 0xd6, 0x3f,
  0xfc, 0x43, 0x95, 0x3e, 0x5c, 0x9a, 0x1b, 0xbe, 0x1a, 0x01, 0x11, 0x3e,
  0x55, 0x0e, 0x83, 0xbe, 0x66, 0x53, 0xbd, 0xbd, 0xa1, 0x00, 0xaf, 0xc0,
  0xbe, 0x6e, 0x8f, 0x3f, 0x01, 0x89, 0x80, 0x3f, 0xe3, 0xfc, 0x68, 0x40,
  0xec, 0x05, 0x59, 0x3f, 0xdb, 0x39, 0x7c, 0x3f, 0x5c, 0xa3, 0x19, 0x3f,
  0xb9, 0xb3, 0xbd, 0xbf, 0xdc, 0xe1, 0x54, 0x3e, 0xec, 0xba, 0x2b, 0x40,
  0xd1, 0xa6, 0x3c, 0x3f, 0x33, 0x16, 0x08, 0x40, 0x94, 0xb4, 0x02, 0x3f,
  0x86, 0x08, 0xd9, 0x3f, 0x22, 0x15, 0x4d, 0x40, 0x90, 0xad, 0x03, 0x3e,
  0x74, 0xd1, 0x08, 0x3e, 0xc0, 0xcf, 0xea, 0x3b, 0x2f, 0x99, 0x0b, 0x3f,
  0x35, 0x61, 0x0d, 0x40, 0xb0, 0xef, 0xf9, 0x3d, 0x66, 0xb1, 0x03, 0x3f,
  0x71, 0xb6, 0x30, 0x40, 0x30, 0x37, 0x31, 0x3e, 0xa2, 0xb1, 0x28, 0x40,
  0xfa, 0x18, 0xb0, 0x3f, 0x2f, 0x15, 0x67, 0x3f, 0xa5, 0x47, 0x87, 0x3e,
  0x5c, 0x86, 0xaa, 0x3f, 0xe5, 0x4e, 0x1d, 0x3e, 0x84, 0x83, 0x12, 0x3e,
  0xcf, 0x24, 0x9a, 0xbe, 0x5e, 0xc3, 0x04, 0xbe, 0x00, 0x81, 0x83, 0x3e,
  0xd6, 0xfe, 0xa1, 0xbc, 0x29, 0x46, 0x22, 0xc0, 0x78, 0x3c, 0x59, 0x3e,
  0x0d, 0x5e, 0xed, 0x3f, 0x17, 0x6f, 0x4e, 0x3f, 0x7b, 0x7a, 0xcc, 0xbe,
  0x6f, 0x84, 0x44, 0x3f, 0x45, 0x40, 0x87, 0xbf, 0x72, 0x16, 0xe0, 0xbc,
  0x9d, 0xa3, 0x91, 0xbe, 0x31, 0xa1, 0x7b, 0xbf, 0x3a, 0x1f, 0x86, 0xbf,
  0x35, 0x1e, 0x29, 0xbe, 0x08, 0xf9, 0x58, 0xbf, 0xe5, 0xb7, 0x5f, 0xbf,
  0x7a, 0x08, 0x91, 0x3e, 0x47, 0x95, 0x00, 0x40, 0x15, 0x11, 0xb1, 0xbf,
  0xae, 0xba, 0x2a, 0xbf, 0x0e, 0x04, 0x21, 0xc0, 0x3c, 0xc9, 0x50, 0x3f,
  0xc6, 0xac, 0x90, 0xbc, 0xd7, 0x0e, 0x80, 0x3f, 0x63, 0xfd, 0xa5, 0x3e,
  0x82, 0x4f, 0x53, 0xbe, 0x5b, 0x96, 0xd3, 0x3f, 0xc4, 0x7e, 0xe5, 0x3e,
  0x86, 0x01, 0x46, 0xbe, 0xfd, 0x83, 0x68, 0x3f, 0x36, 0x81, 0xd8, 0x3f,
  0x71, 0xa2, 0x01, 0xc0, 0xc0, 0x1b, 0xa4, 0x3b, 0xda, 0xca, 0xc3, 0xbd,
  0x82, 0x9b, 0x2a, 0x3e, 0xe3, 0xcc, 0x6e, 0xbe, 0x9a, 0x3c, 0x52, 0xbf,
  0xcc, 0x63, 0x8c, 0x3d, 0x71, 0x6f, 0x85, 0xbf, 0xe4, 0x37, 0x1c, 0xbf,
  0x84, 0xa1, 0x35, 0xbe, 0x7a, 0x74, 0xae, 0x3f, 0xa0, 0x78, 0xa9, 0x3e,
  0xa4, 0xfe, 0x3e, 0x3f, 0xed, 0x53, 0x7e, 0xbe, 0x85, 0x4b, 0xe6, 0xbf,
  0xe4, 0xf5, 0x40, 0xbe, 0x84, 0xd2, 0xbb, 0xbd, 0x70, 0x72, 0xc5, 0x3f,
  0x3a, 0x56, 0x8b, 0xbe, 0x48, 0x43, 0xbf, 0x3d, 0xa1, 0x30, 0xff, 0xbe,
  0xfe, 0x41, 0x20, 0x40, 0x40, 0x45, 0x9d, 0x3c, 0x4c, 0x2d, 0x8b, 0xbf,
  0x8d, 0xb8, 0xce, 0xbe, 0x9b, 0xe8, 0x69, 0xbf, 0xa8, 0x19, 0x00, 0x3f,
  0xf3, 0x6e, 0xe3, 0xbe, 0x7d, 0xe6, 0x02, 0x3f, 0x29, 0x58, 0x18, 0x3f,
  0xa4, 0xd2, 0x1b, 0x3f, 0x3a, 0xe9, 0x86, 0x3f, 0xe4, 0x7d, 0xc1, 0x3d,
  0x74, 0x4e, 0x46, 0x40, 0x08, 0x51, 0xfb, 0xbe, 0x8e, 0x2e, 0x04, 0x3e,
  0xb0, 0x6a, 0x70, 0xc0, 0x82, 0x18, 0x3e, 0xbe, 0xb8, 0xe5, 0x3c, 0xbe,
  0x5e, 0xc0, 0x91, 0x3f, 0x53, 0xee, 0x03, 0x3f, 0xe2, 0x53, 0xca, 0xbe,
  0x9d, 0x3a, 0xc3, 0xbe, 0x93, 0xa2, 0x68, 0x3f, 0xd0, 0x90, 0x11, 0x3d,
  0x3b, 0x99, 0x81, 0x3f, 0xb7, 0x8d, 0x40, 0xbe, 0xe5, 0xe0, 0x11, 0x3f,
  0x82, 0xb4, 0x92, 0xbe, 0x3d, 0xed, 0x1c, 0x40, 0xe8, 0xeb, 0x1d, 0x3f,
  0x20, 0x17, 0x72, 0x3e, 0x00, 0x18, 0xea, 0x3a, 0xe4, 0x25, 0xa4, 0x3d,
  0xaa, 0xf5, 0x26, 0xbd, 0x31, 0x8b, 0xb5, 0x3f, 0x56, 0xc5, 0x3d, 0x3e,
  0x03, 0x2c, 0x27, 0x3f, 0x87, 0x4c, 0x70, 0x3f, 0x52, 0x3e, 0x00, 0xbe,
  0x73, 0x60, 0xab, 0x3f, 0xda, 0xe6, 0x90, 0x3f, 0x41, 0xbb, 0xa5, 0xbe,
  0x57, 0x0e, 0xd4, 0xbe, 0x07, 0x9c, 0x8a, 0x3f, 0xe3, 0x67, 0x37, 0x3e,
  0xc9, 0x55, 0x6d, 0xbe, 0x2c, 0x29, 0x28, 0xbd, 0x94, 0xfc, 0x87, 0x3d,
  0xb2, 0xf1, 0x40, 0x3e, 0xbf, 0x83, 0x09, 0x3f, 0x13, 0x5d, 0xb6, 0xbf,
  0x52, 0x45, 0x2b, 0x3e, 0x0e, 0xd3, 0x36, 0x3f, 0xa4, 0x2d, 0x04, 0xbf,
  0x46, 0x8c, 0x4b, 0x3e, 0x51, 0x47, 0x24, 0xbd, 0xb7, 0xb8, 0xaf, 0xbc,
  0xbf, 0x64, 0xbe, 0xbd, 0xb2, 0x2a, 0x70, 0xbd, 0x1f, 0x6c, 0x94, 0xbd,
  0x66, 0x72, 0x17, 0x3e, 0xef, 0x00, 0x4e, 0xbe, 0xe6, 0xfe, 0x90, 0x3e,
  0x89, 0xd3, 0xba, 0x3e, 0xb8, 0xf4, 0x88, 0x3e, 0x29, 0xb5, 0x2f, 0xbf,
  0x20, 0xf1, 0xb2, 0x3e, 0x42, 0x8b, 0x12, 0xbe, 0x3a, 0xc2, 0x55, 0xbe,
  0x36, 0x5d, 0x0c, 0x3f, 0x4d, 0xab, 0x62, 0x3e, 0x5d, 0xe0, 0x5e, 0xbe,
  0x59, 0x9b, 0x26, 0xbf, 0x26, 0xed, 0x92, 0xbe, 0x07, 0x94, 0x26, 0xbf,
  0x29, 0x16, 0x24, 0x3e, 0x7a, 0x67, 0x29, 0xbf, 0x12, 0xa9, 0x51, 0xbe,
  0x23, 0x0d, 0x9c, 0xbf, 0x21, 0x7f, 0x34, 0xbf, 0xc4, 0x89, 0x72, 0x3e,
  0xb6, 0x21, 0x51, 0xbe, 0x80, 0x3c, 0xaa, 0xbc, 0x04, 0xa8, 0xc3, 0xbe,
  0x4b, 0xa5, 0x51, 0xbb, 0xb0, 0x4a, 0x67, 0x3d, 0x3f, 0xd1, 0x32, 0xbd,
  0xce, 0xaf, 0xa8, 0xbe, 0x88, 0x67, 0xa5, 0xbd, 0x23, 0xde, 0x85, 0xbf,
  0xe9, 0xf8, 0x54, 0xbe, 0xef, 0xd2, 0xa6, 0xbf, 0xb1, 0x48, 0x17, 0xbf,
  0x40, 0xb7, 0x86, 0x3e, 0xc0, 0x53, 0xcc, 0xbb, 0x64, 0x5d, 0x9c, 0x3d,
  0x80, 0x2f, 0x4d, 0xbf, 0x54, 0x41, 0x5a, 0x3e, 0x90, 0x65, 0x91, 0x3e,
  0x93, 0xd0, 0xdf, 0xbc, 0x7e, 0x45, 0x3a, 0xbf, 0xdc, 0xef, 0xd4, 0xbd,
  0x13, 0x0c, 0xb8, 0x3d, 0x94, 0x36, 0x18, 0xbf, 0x3c, 0xb8, 0xa9, 0x3e,
  0x4e, 0xe4, 0x57, 0xbf, 0xa7, 0x3a, 0x1b, 0x3f, 0x59, 0xd3, 0xcf, 0xbe,
  0xb6, 0x77, 0xb7, 0x3f, 0x8b, 0xc3, 0x11, 0x3f, 0x64, 0xa2, 0x83, 0x3d,
  0xe0, 0xd5, 0x01, 0xbd, 0x33, 0x81, 0xbc, 0xbf, 0xcf, 0xe9, 0xbf, 0x3f,
  0xc0, 0xdf, 0xac, 0x3d, 0x45, 0x4b, 0xf0, 0x40, 0x43, 0x4e, 0x1a, 0x3f,
  0x6f, 0xa7, 0x86, 0x3f, 0xf9, 0xa6, 0x8c, 0xbf, 0x15, 0x74, 0x0c, 0x40,
  0x81, 0x87, 0xb2, 0x3f, 0x87, 0x44, 0x5e, 0xbf, 0xa9, 0x83, 0x84, 0x3f,
  0xf8, 0x1a, 0x33, 0xbd, 0x6f, 0x47, 0x01, 0x3f, 0xaf, 0x47, 0x25, 0xbf,
  0xb3, 0x13, 0x29, 0x3f, 0xc3, 0xc0, 0xb0, 0xbf, 0xf3, 0x8e, 0xd4, 0x3f,
  0x34, 0x15, 0x4a, 0xbf, 0x1c, 0xff, 0x98, 0x3d, 0x88, 0x27, 0x76, 0x3d,
  0x98, 0x51, 0x59, 0x3e, 0x61, 0x2e, 0x84, 0x3e, 0x32, 0xbf, 0xc7, 0xbf,
  0x69, 0x6c, 0x14, 0xbe, 0x88, 0x37, 0x02, 0x3f, 0x96, 0x46, 0x3e, 0x3f,
  0x38, 0xe0, 0x4e, 0x3e, 0xe7, 0xbf, 0xb7, 0xbf, 0xc4, 0x32, 0xfd, 0xbd,
  0xe6, 0xe0, 0x83, 0xbf, 0x28, 0x00, 0x62, 0xbd, 0x5c, 0xaf, 0x0e, 0xc0,
  0xb0, 0x1e, 0x7c, 0x3d, 0x90, 0x32, 0x98, 0xbe, 0xe6, 0x4f, 0x6f, 0xc0,
  0x54, 0xf0, 0x70, 0xbe, 0xce, 0x45, 0x03, 0x3e, 0x12, 0xc5, 0x0e, 0x3e,
  0xb6, 0x10, 0x82, 0x40, 0x00, 0xe2, 0x63, 0xbe, 0xb5, 0xe6, 0x9b, 0xbf,
  0xbc, 0xb6, 0xf9, 0x3d, 0xf6, 0x8f, 0x58, 0x3f, 0x84, 0x7e, 0x8c, 0xbf,
  0x25, 0xf8, 0x64, 0x3f, 0x7b, 0xa4, 0xbc, 0x3c, 0x26, 0xc6, 0x7e, 0xbf,
  0x36, 0x1c, 0x83, 0x3f, 0x03, 0xc9, 0x84, 0x3e, 0xc4, 0x62, 0x64, 0x3e,
  0x38, 0x47, 0x0d, 0xc0, 0xac, 0xaf, 0xfe, 0x3f, 0x78, 0xc4, 0x0e, 0xbd,
  0x89, 0xf4, 0x82, 0x40, 0xc2, 0xa6, 0xa8, 0x3f, 0xf3, 0xf4, 0x48, 0x3f,
  0x2e, 0xda, 0xa9, 0x3f, 0xb7, 0xde, 0x4f, 0x3f, 0x45, 0x92, 0x96, 0x3f,
  0xb6, 0x1c, 0xf2, 0xbe, 0x19, 0x67, 0x8c, 0xbe, 0x40, 0xa6, 0xa2, 0xbb,
  0x68, 0x5e, 0xab, 0xbf, 0xb4, 0xbb, 0x0b, 0xbf, 0x08, 0x3b, 0xbd, 0x3f,
  0xc5, 0x78, 0x33, 0xbf, 0xf5, 0x71, 0xc1, 0xbd, 0x3d, 0x66, 0x4c, 0x3f,
  0xf0, 0x18, 0x94, 0x3d, 0x1e, 0xf3, 0xe6, 0xbd, 0xbc, 0x66, 0x70, 0xbe,
  0xe0, 0xe8, 0x53, 0x3e, 0x9b, 0xd3, 0xb0, 0x3e, 0x78, 0x87, 0x8a, 0xbe,
  0x6c, 0x16, 0x2f, 0x3f, 0x70, 0xcf, 0xc7, 0xbd, 0xf8, 0x9c, 0x55, 0xbd,
  0x7a, 0x56, 0x0b, 0xc0, 0xbd, 0x99, 0xaa, 0x3e, 0x53, 0x42, 0xae, 0xbf,
  0x61, 0x42, 0x72, 0xbe, 0x4e, 0x44, 0x85, 0xbe, 0xa7, 0x28, 0x4e, 0x3e,
  0xf5, 0x68, 0x8e, 0xbe, 0xe7, 0x52, 0x8e, 0xc0, 0x40, 0xd2, 0x63, 0x3c,
  0xb2, 0xbd, 0x80, 0x3e, 0xef, 0x84, 0xe1, 0x3e, 0xab, 0x38, 0xf7, 0x3f,
  0x28, 0x40, 0x25, 0x3d, 0xf3, 0xaf, 0xd6, 0x3e, 0x7a, 0xf9, 0xff, 0xff,
  0x04, 0x00, 0x00, 0x00, 0xb0, 0x04, 0x00, 0x00, 0x0f, 0xf5, 0x07, 0xbe,
  0x69, 0x49, 0xe7, 0x3e, 0x76, 0x00, 0x24, 0x3f, 0x19, 0xb8, 0x20, 0xbf,
  0x17, 0xf0, 0x01, 0xbf, 0x55, 0xc7, 0x5a, 0x3e, 0xe1, 0xc7, 0xb7, 0x3d,
  0x8f, 0xd7, 0x1a, 0x3f, 0x6c, 0x30, 0xb4, 0xbd, 0x6e, 0xec, 0xae, 0x3d,
  0xd6, 0xa9, 0xad, 0xbe, 0xcb, 0xa7, 0x0c, 0xbf, 0x33, 0x96, 0xee, 0xbd,
  0x1f, 0x60, 0xeb, 0xbd, 0xc2, 0xc2, 0x04, 0x3e, 0xaf, 0x0f, 0xc0, 0x3e,
  0xc6, 0xfe, 0x06, 0x3e, 0xe9, 0x3f, 0xd8, 0x3e, 0x2f, 0xae, 0x80, 0xbc,
  0xef, 0x62, 0x96, 0x3e, 0x33, 0xc9, 0xad, 0xbb, 0xe9, 0x3a, 0x41, 0x3d,
  0xaf, 0xc9, 0x54, 0xbd, 0x15, 0x7c, 0x10, 0xbf, 0xeb, 0x6e, 0xc3, 0xbd,
  0x6e, 0x40, 0xc0, 0x3c, 0x70, 0x02, 0x0e, 0x3e, 0x0c, 0xeb, 0x3a, 0x3e,
  0xdf, 0x6f, 0xaa, 0xbb, 0xdc, 0x9a, 0x6d, 0xbc, 0xe4, 0x65, 0x76, 0x3f,
  0x69, 0xc4, 0xc7, 0xbe, 0x55, 0xc6, 0x99, 0xbd, 0x20, 0x11, 0x34, 0x3e,
  0xef, 0xc6, 0x47, 0x3f, 0xe0, 0x50, 0x9e, 0xbe, 0x55, 0xe2, 0x97, 0xbe,
  0x19, 0x85, 0xcd, 0xbd, 0x8e, 0x3e, 0xd0, 0x3e, 0x4a, 0x04, 0xb4, 0xbe,
  0x6d, 0xd4, 0x77, 0x3e, 0x43, 0xff, 0x2d, 0xbf, 0xba, 0x5c, 0x21, 0x3e,
  0x76, 0xc3, 0x07, 0xbf, 0x80, 0x88, 0x0c, 0xbf, 0xe2, 0x08, 0xaf, 0x3e,
  0x3e, 0x5a, 0xee, 0x3e, 0x49, 0x83, 0x7b, 0xbe, 0x56, 0xe6, 0x41, 0xbe,
  0x2f, 0x25, 0x9d, 0xbe, 0x2b, 0xc3, 0x9b, 0xbe, 0xbd, 0xe4, 0x0c, 0xbe,
  0x4b, 0x14, 0x33, 0xbe, 0x61, 0x41, 0x00, 0xbe, 0xd6, 0xc0, 0x49, 0x3e,
  0xae, 0x94, 0xf2, 0xbe, 0x16, 0x40, 0x8c, 0xbf, 0x7f, 0xb8, 0xa8, 0x3f,
  0x83, 0x50, 0x1a, 0x3f, 0xf6, 0x71, 0xad, 0x3d, 0x27, 0x09, 0x5e, 0xbf,
  0x3e, 0xef, 0x5d, 0x3f, 0xb5, 0x70, 0x71, 0x3f, 0x4d, 0x68, 0xba, 0x3e,
  0x0e, 0x8a, 0x24, 0x3f, 0x97, 0x00, 0x3c, 0xbe, 0x35, 0x13, 0x31, 0xbe,
  0x50, 0xf6, 0x08, 0x3e, 0xcf, 0x77, 0x8e, 0xbe, 0xca, 0x96, 0xef, 0xbd,
  0x00, 0xdd, 0xdd, 0x3b, 0x80, 0x01, 0xfb, 0xbb, 0x93, 0x9b, 0x28, 0xbf,
  0xef, 0xcc, 0x5f, 0x3f, 0xcd, 0xe2, 0x8f, 0xbe, 0x23, 0x15, 0x39, 0x3e,
  0x10, 0x2d, 0xae, 0x3e, 0xf3, 0x61, 0x0e, 0xbf, 0xbc, 0xd0, 0x99, 0x3d,
  0x4d, 0x01, 0xb0, 0x3e, 0x33, 0x79, 0x06, 0x3c, 0x77, 0x7c, 0x0b, 0x3e,
  0x8e, 0xb3, 0xa4, 0x3e, 0x73, 0xc9, 0x24, 0xbf, 0x63, 0xd1, 0x16, 0x3b,
  0x39, 0xde, 0x5f, 0x3e, 0xe1, 0xa7, 0x8f, 0x3e, 0x66, 0x17, 0xb5, 0xbe,
  0x04, 0xb6, 0x99, 0xbd, 0xe3, 0x1c, 0x45, 0xbf, 0xa1, 0x9a, 0xfa, 0x3e,
  0xa5, 0xf5, 0x8b, 0x3e, 0x38, 0x68, 0x88, 0x3f, 0x4c, 0xe2, 0x84, 0xbe,
  0xc7, 0x72, 0xa4, 0xbe, 0x42, 0xd1, 0x8e, 0xbe, 0xc3, 0x18, 0xd2, 0xbd,
  0x8f, 0x50, 0x16, 0x3f, 0xb9, 0x18, 0x9e, 0xbe, 0x58, 0x68, 0xe0, 0xbe,
  0x8d, 0xa6, 0xb9, 0x3e, 0x1b, 0x61, 0x12, 0xbe, 0x1a, 0xdd, 0x1d, 0x3e,
  0xa7, 0x1d, 0x3e, 0x3f, 0xf3, 0xf3, 0x00, 0xbf, 0xcb, 0xb1, 0xce, 0xbe,
  0x15, 0x1f, 0x20, 0x3e, 0xc6, 0xd9, 0xea, 0xbe, 0xb3, 0x26, 0xbe, 0x3e,
  0x67, 0x47, 0x11, 0xbd, 0x06, 0x2e, 0x1c, 0x3e, 0x6b, 0xfc, 0x5c, 0x3e,
  0x6d, 0x76, 0x9d, 0xbd, 0x2f, 0x5f, 0x02, 0x3f, 0x9c, 0x56, 0x85, 0x3f,
  0x1e, 0x83, 0x94, 0x3f, 0x76, 0x3b, 0x42, 0x3f, 0x1d, 0xf6, 0x1c, 0x40,
  0xe3, 0x60, 0xde, 0x3f, 0xc2, 0x45, 0x43, 0x3f, 0x50, 0x16, 0x19, 0x3e,
  0xf1, 0xdb, 0x7f, 0xbe, 0xb6, 0xb4, 0x2e, 0xbe, 0xee, 0x8a, 0x91, 0xbe,
  0x70, 0x81, 0xd1, 0x3d, 0x31, 0xd6, 0x7d, 0xbe, 0x74, 0x10, 0xfc, 0x3e,
  0xaa, 0x81, 0xb7, 0x3d, 0xeb, 0xc1, 0x14, 0x3f, 0x2b, 0xa5, 0xae, 0xbe,
  0xc8, 0x3f, 0xc7, 0x3e, 0xd9, 0xfe, 0x15, 0x3f, 0xa7, 0x81, 0x41, 0x3f,
  0x53, 0xcf, 0xf0, 0x3d, 0x7b, 0xae, 0xea, 0x3e, 0xc7, 0x7b, 0x16, 0x3e,
  0xc1, 0x56, 0x54, 0x3c, 0x40, 0x75, 0x84, 0x3f, 0xfd, 0x9b, 0x5f, 0xbe,
  0x54, 0x77, 0x65, 0x3f, 0xd9, 0x69, 0x94, 0xbe, 0xf7, 0xc0, 0x10, 0xbf,
  0x65, 0xaf, 0xba, 0xbe, 0x2e, 0xa2, 0x5f, 0x3e, 0x62, 0xef, 0x91, 0xbe,
  0xc4, 0xb5, 0x01, 0xbe, 0x32, 0xfc, 0xe2, 0x3d, 0x9d, 0x26, 0x23, 0xbc,
  0xfd, 0x56, 0x23, 0xbf, 0xd8, 0xd2, 0x81, 0x3f, 0xf5, 0x11, 0x36, 0xbe,
  0x0a, 0x08, 0xe4, 0x3e, 0x60, 0x53, 0x19, 0xbe, 0xd5, 0xd5, 0x84, 0xbf,
  0x85, 0xa2, 0x6e, 0xbd, 0x89, 0x2e, 0xcb, 0x3e, 0x08, 0x04, 0xdb, 0x3e,
  0x26, 0x5f, 0x3e, 0x3e, 0xad, 0xa5, 0x6b, 0x3f, 0x89, 0x4d, 0x51, 0xbe,
  0x87, 0x64, 0x34, 0xbe, 0x98, 0x68, 0xce, 0xbd, 0x78, 0x6b, 0x4f, 0xbe,
  0x4a, 0x27, 0x6b, 0xbe, 0xa9, 0xf8, 0xa4, 0xbe, 0xd0, 0x14, 0x53, 0xbe,
  0x19, 0xc5, 0x8b, 0xbe, 0xda, 0x08, 0x04, 0x3e, 0x9f, 0x64, 0x99, 0xbe,
  0x18, 0x66, 0x1d, 0x3d, 0x50, 0xd7, 0xbe, 0x3c, 0x88, 0xee, 0x78, 0x3d,
  0xc1, 0xc8, 0x39, 0xbe, 0xd1, 0x33, 0x04, 0xbe, 0xfe, 0xb9, 0x97, 0xbe,
  0x94, 0x27, 0x13, 0x3e, 0xac, 0xd0, 0x66, 0x3e, 0xf2, 0x73, 0x9e, 0xbe,
  0x2c, 0xbd, 0x8e, 0xbd, 0xb2, 0xfe, 0x7d, 0xbe, 0xd1, 0xca, 0x48, 0x3d,
  0x12, 0xc9, 0xbe, 0xbd, 0xcc, 0xc2, 0x0b, 0xbe, 0xaf, 0x55, 0x34, 0xbe,
  0x72, 0x7b, 0x50, 0x3e, 0x88, 0x18, 0xdc, 0xbe, 0xdd, 0xb3, 0xd0, 0xbc,
  0xa3, 0xcc, 0x38, 0xbe, 0x6e, 0xc9, 0x94, 0x3f, 0xd9, 0x94, 0x98, 0x3e,
  0xa3, 0xaf, 0x11, 0xbe, 0x2d, 0x45, 0x66, 0xbc, 0xe8, 0x04, 0x75, 0xbe,
  0x50, 0x06, 0x19, 0xbe, 0x2e, 0x07, 0x92, 0xbe, 0xf0, 0x3d, 0xce, 0xbd,
  0x86, 0x00, 0x9d, 0xbe, 0xba, 0x1c, 0xa7, 0xbe, 0x44, 0xde, 0x96, 0x3c,
  0x56, 0x02, 0xa4, 0xbd, 0x50, 0x07, 0xba, 0xbe, 0x75, 0x4b, 0x78, 0x3e,
  0xa4, 0x5d, 0x54, 0x3f, 0x06, 0xe3, 0xe1, 0xbe, 0x6d, 0x08, 0xec, 0x3d,
  0x2a, 0x0d, 0x20, 0x3e, 0x47, 0xde, 0x70, 0x3f, 0x39, 0xa5, 0xc5, 0xbe,
  0x10, 0x83, 0x8d, 0x3d, 0x31, 0xd1, 0x92, 0xbd, 0xa3, 0x8e, 0x84, 0xbe,
  0xca, 0x18, 0x29, 0xbe, 0xf2, 0x45, 0x9c, 0xbe, 0x3c, 0x0c, 0xce, 0x3d,
  0xc4, 0xaf, 0x97, 0xbd, 0x5d, 0x88, 0x1d, 0xbe, 0x85, 0x6d, 0x7d, 0x3d,
  0xa6, 0xc5, 0x8a, 0x3e, 0x1f, 0x7c, 0xdd, 0x3d, 0x90, 0x01, 0x51, 0xbf,
  0x7d, 0x01, 0xf1, 0xbe, 0xa5, 0xf4, 0x40, 0x3f, 0xc4, 0xc5, 0x00, 0x3e,
  0xf2, 0x3e, 0x90, 0x3e, 0x94, 0xda, 0x0e, 0xbc, 0x99, 0xd6, 0x14, 0xbf,
  0x3a, 0xa0, 0xea, 0xbd, 0xb4, 0x04, 0x9c, 0xbb, 0x30, 0x3b, 0x60, 0xbe,
  0x7f, 0xfe, 0x22, 0x3e, 0x52, 0x2e, 0xcc, 0x3e, 0xc6, 0x03, 0x02, 0xbe,
  0x61, 0x46, 0x8a, 0xbf, 0x0b, 0x37, 0x50, 0x3f, 0xd8, 0x4d, 0x88, 0x3f,
  0xf7, 0xf4, 0x71, 0x3f, 0xa1, 0x07, 0x66, 0x3e, 0xd6, 0xfd, 0x0b, 0x3f,
  0x8e, 0xce, 0x17, 0x3f, 0x84, 0xff, 0x50, 0x3f, 0x36, 0xa6, 0xb5, 0xbe,
  0x81, 0xda, 0xa3, 0xbe, 0x2f, 0xbd, 0x43, 0x3f, 0x1d, 0xf4, 0xa7, 0x3e,
  0x4f, 0xd0, 0x05, 0x3e, 0xfe, 0x2c, 0x1b, 0x3e, 0xba, 0x9f, 0xa9, 0x3c,
  0x2b, 0x78, 0x4b, 0xbe, 0xa4, 0x49, 0x1b, 0x3d, 0xb5, 0xc7, 0x7b, 0xbd,
  0x09, 0x2b, 0xd9, 0xbd, 0x6b, 0xa6, 0x70, 0x3c, 0x13, 0x4e, 0x08, 0x3e,
  0x81, 0x90, 0x9a, 0xbd, 0xf9, 0xa5, 0x23, 0x3e, 0x87, 0x37, 0x90, 0xbe,
  0xd1, 0x00, 0xa7, 0xbe, 0x56, 0x8e, 0xd0, 0xbd, 0x93, 0x14, 0x8a, 0xbe,
  0x98, 0xe4, 0x8f, 0xbe, 0x5a, 0x0f, 0xcc, 0x3c, 0x75, 0xb5, 0x47, 0x3f,
  0x68, 0x4c, 0xe2, 0xbe, 0x0f, 0xe5, 0x76, 0x3f, 0x44, 0x21, 0x5e, 0xbe,
  0xf2, 0xfd, 0x6e, 0xbe, 0x35, 0xa1, 0x98, 0xbe, 0xa0, 0x93, 0x06, 0x3d,
  0x79, 0xda, 0xa3, 0xbe, 0xd0, 0x9e, 0x58, 0x3e, 0x4d, 0xb6, 0x9d, 0xbe,
  0x92, 0xee, 0xbe, 0xbd, 0xca, 0x10, 0xf7, 0xbd, 0x76, 0x9a, 0x76, 0xbe,
  0x78, 0xf1, 0xdc, 0x3d, 0xea, 0x4d, 0xdb, 0xbd, 0xef, 0x44, 0x50, 0x3d,
  0x4f, 0x79, 0xd3, 0x3c, 0x78, 0xe5, 0x83, 0x3d, 0x35, 0x15, 0xc1, 0x3e,
  0xee, 0xba, 0x5d, 0x3d, 0x4f, 0xbf, 0x20, 0xbe, 0xde, 0x77, 0x4f, 0x3f,
  0x10, 0xa0, 0xfc, 0xbf, 0x51, 0xb1, 0xb9, 0x3e, 0xed, 0x37, 0x5c, 0x3e,
  0x97, 0xf2, 0xa8, 0x3e, 0x5a, 0xc4, 0x44, 0xbf, 0x68, 0x68, 0x35, 0x3d,
  0x4a, 0x98, 0xa0, 0xbd, 0x00, 0xa7, 0x27, 0x3b, 0x00, 0xd8, 0x2c, 0xbb,
  0x85, 0x62, 0x04, 0xbe, 0x44, 0xb5, 0xb0, 0xbd, 0x01, 0x1d, 0x2f, 0x3e,
  0x71, 0x34, 0x76, 0xbb, 0x2e, 0x93, 0x79, 0x3f, 0xee, 0xb7, 0x9c, 0x3e,
  0x27, 0xb9, 0x89, 0xbe, 0x97, 0x7f, 0x91, 0xbd, 0x36, 0xfe, 0xff, 0xff,
  0x04, 0x00, 0x00, 0x00, 0xc8, 0x00, 0x00, 0x00, 0xee, 0x9a, 0xb9, 0xbd,
  0xb5, 0xb7, 0xd5, 0x3d, 0x0a, 0xd8, 0xd1, 0xbe, 0x02, 0xae, 0x76, 0x3d,
  0xda, 0x8c, 0x54, 0xbe, 0x4f, 0x36, 0x51, 0x3d, 0x52, 0x4a, 0xd1, 0x3d,
  0xdd, 0x08, 0x07, 0x3e, 0x00, 0x00, 0x00, 0x00, 0xcc, 0x51, 0x44, 0xbe,
  0x9e, 0x88, 0x16, 0x3f, 0x00, 0x00, 0x00, 0x00, 0xf5, 0xeb, 0x15, 0xbd,
  0x27, 0x58, 0xb5, 0x3e, 0xe5, 0xe8, 0x85, 0x3d, 0x8e, 0x77, 0xd8, 0xbe,
  0xb0, 0x93, 0x59, 0x3d, 0xb6, 0xf7, 0x93, 0x3e, 0x76, 0x02, 0x09, 0xbf,
  0x42, 0x00, 0xb7, 0x3f, 0x00, 0x00, 0x00, 0x00, 0x50, 0x3b, 0x43, 0xbe,
  0x14, 0x58, 0xe4, 0x3e, 0x57, 0x9a, 0x38, 0x3e, 0xe6, 0x17, 0x86, 0xbd,
  0xf5, 0xcb, 0x70, 0x3e, 0xc6, 0x99, 0xf9, 0xbe, 0x00, 0x00, 0x00, 0x00,
  0x00, 0x00, 0x00, 0x00, 0x00, 0x00, 0x00, 0x00, 0x32, 0x05, 0xf0, 0xbc,
  0xb8, 0x52, 0x15, 0xbf, 0x00, 0x00, 0x00, 0x00, 0xfb, 0x17, 0xbe, 0x3e,
  0x6e, 0x99, 0xb2, 0xbe, 0x00, 0x00, 0x00, 0x00, 0xa1, 0x8d, 0x81, 0x3c,
  0xdc, 0x5a, 0x0e, 0xbe, 0x01, 0x25, 0xad, 0xbc, 0x97, 0x1b, 0x23, 0x3f,
  0xce, 0x07, 0x02, 0xbf, 0x9a, 0x22, 0xb5, 0xbc, 0x08, 0xb5, 0x1d, 0xbd,
  0x7f, 0xcb, 0xb5, 0xbe, 0x00, 0x00, 0x00, 0x00, 0x00, 0x00, 0x00, 0x00,
  0x18, 0x34, 0x24, 0xbe, 0x4d, 0xc9, 0x21, 0x3f, 0x00, 0x00, 0x00, 0x00,
  0x53, 0x84, 0x15, 0xbf, 0x0a, 0xff, 0xff, 0xff, 0x04, 0x00, 0x00, 0x00,
  0x3c, 0x00, 0x00, 0x00, 0xf1, 0x99, 0x91, 0x3d, 0x55, 0xde, 0xfe, 0x3f,
  0x00, 0x00, 0x00, 0x00, 0x3c, 0x55, 0x03, 0xbf, 0x23, 0xd8, 0x24, 0x3f,
  0x28, 0xfe, 0xb8, 0xbd, 0xb5, 0x88, 0xce, 0x3e, 0x00, 0x00, 0x00, 0x00,
  0x89, 0x5e, 0x28, 0xbf, 0xf7, 0x26, 0xdc, 0x3f, 0xd6, 0x2f, 0x8f, 0x3e,
  0x66, 0x5a, 0x0c, 0x3f, 0x0b, 0x15, 0x3c, 0xbe, 0xce, 0xee, 0x15, 0xbf,
  0xcf, 0x3b, 0xf5, 0x3e, 0x52, 0xff, 0xff, 0xff, 0x04, 0x00, 0x00, 0x00,
  0x0c, 0x00, 0x00, 0x00, 0x61, 0xcb, 0x20, 0x3f, 0x10, 0xaf, 0x1b, 0xbf,
  0x99, 0xed, 0x91, 0xbd, 0xb8, 0xfa, 0xff, 0xff, 0xbc, 0xfa, 0xff, 0xff,
  0x0f, 0x00, 0x00, 0x00, 0x4d, 0x4c, 0x49, 0x52, 0x20, 0x43, 0x6f, 0x6e,
  0x76, 0x65, 0x72, 0x74, 0x65, 0x64, 0x2e, 0x00, 0x01, 0x00, 0x00, 0x00,
  0x14, 0x00, 0x00, 0x00, 0x00, 0x00, 0x0e, 0x00, 0x18, 0x00, 0x14, 0x00,
  0x10, 0x00, 0x0c, 0x00, 0x08, 0x00, 0x04, 0x00, 0x0e, 0x00, 0x00, 0x00,
  0x14, 0x00, 0x00, 0x00, 0x1c, 0x00, 0x00, 0x00, 0x24, 0x01, 0x00, 0x00,
  0x28, 0x01, 0x00, 0x00, 0x2c, 0x01, 0x00, 0x00, 0x04, 0x00, 0x00, 0x00,
  0x6d, 0x61, 0x69, 0x6e, 0x00, 0x00, 0x00, 0x00, 0x04, 0x00, 0x00, 0x00,
  0xcc, 0x00, 0x00, 0x00, 0x84, 0x00, 0x00, 0x00, 0x50, 0x00, 0x00, 0x00,
  0x14, 0x00, 0x00, 0x00, 0x00, 0x00, 0x0e, 0x00, 0x1a, 0x00, 0x14, 0x00,
  0x10, 0x00, 0x0c, 0x00, 0x0b, 0x00, 0x04, 0x00, 0x0e, 0x00, 0x00, 0x00,
  0x1c, 0x00, 0x00, 0x00, 0x00, 0x00, 0x00, 0x09, 0x1c, 0x00, 0x00, 0x00,
  0x20, 0x00, 0x00, 0x00, 0x01, 0x00, 0x00, 0x00, 0x00, 0x00, 0x06, 0x00,
  0x08, 0x00, 0x04, 0x00, 0x06, 0x00, 0x00, 0x00, 0x00, 0x00, 0x80, 0x3f,
  0x01, 0x00, 0x00, 0x00, 0x0a, 0x00, 0x00, 0x00, 0x01, 0x00, 0x00, 0x00,
  0x09, 0x00, 0x00, 0x00, 0x9a, 0xff, 0xff, 0xff, 0x10, 0x00, 0x00, 0x00,
  0x00, 0x00, 0x00, 0x08, 0x0c, 0x00, 0x00, 0x00, 0x10, 0x00, 0x00, 0x00,
  0x80, 0xfb, 0xff, 0xff, 0x01, 0x00, 0x00, 0x00, 0x09, 0x00, 0x00, 0x00,
  0x03, 0x00, 0x00, 0x00, 0x08, 0x00, 0x00, 0x00, 0x06, 0x00, 0x00, 0x00,
  0x01, 0x00, 0x00, 0x00, 0xca, 0xff, 0xff, 0xff, 0x10, 0x00, 0x00, 0x00,
  0x00, 0x00, 0x00, 0x08, 0x10, 0x00, 0x00, 0x00, 0x14, 0x00, 0x00, 0x00,
  0xba, 0xff, 0xff, 0xff, 0x00, 0x00, 0x00, 0x01, 0x01, 0x00, 0x00, 0x00,
  0x08, 0x00, 0x00, 0x00, 0x03, 0x00, 0x00, 0x00, 0x07, 0x00, 0x00, 0x00,
  0x05, 0x00, 0x00, 0x00, 0x02, 0x00, 0x00, 0x00, 0x00, 0x00, 0x0e, 0x00,
  0x16, 0x00, 0x00, 0x00, 0x10, 0x00, 0x0c, 0x00, 0x0b, 0x00, 0x04, 0x00,
  0x0e, 0x00, 0x00, 0x00, 0x18, 0x00, 0x00, 0x00, 0x00, 0x00, 0x00, 0x08,
  0x18, 0x00, 0x00, 0x00, 0x1c, 0x00, 0x00, 0x00, 0x00, 0x00, 0x06, 0x00,
  0x08, 0x00, 0x07, 0x00, 0x06, 0x00, 0x00, 0x00, 0x00, 0x00, 0x00, 0x01,
  0x01, 0x00, 0x00, 0x00, 0x07, 0x00, 0x00, 0x00, 0x03, 0x00, 0x00, 0x00,
  0x00, 0x00, 0x00, 0x00, 0x04, 0x00, 0x00, 0x00, 0x03, 0x00, 0x00, 0x00,
  0x01, 0x00, 0x00, 0x00, 0x0a, 0x00, 0x00, 0x00, 0x01, 0x00, 0x00, 0x00,
  0x00, 0x00, 0x00, 0x00, 0x0b, 0x00, 0x00, 0x00, 0xb8, 0x03, 0x00, 0x00,
  0x40, 0x03, 0x00, 0x00, 0xe0, 0x02, 0x00, 0x00, 0x80, 0x02, 0x00, 0x00,
  0x38, 0x02, 0x00, 0x00, 0xec, 0x01, 0x00, 0x00, 0xa0, 0x01, 0x00, 0x00,
  0x28, 0x01, 0x00, 0x00, 0xa8, 0x00, 0x00, 0x00, 0x40, 0x00, 0x00, 0x00,
  0x04, 0x00, 0x00, 0x00, 0x8a, 0xfc, 0xff, 0xff, 0x00, 0x00, 0x00, 0x01,
  0x10, 0x00, 0x00, 0x00, 0x10, 0x00, 0x00, 0x00, 0x0b, 0x00, 0x00, 0x00,
  0x18, 0x00, 0x00, 0x00, 0x74, 0xfc, 0xff, 0xff, 0x08, 0x00, 0x00, 0x00,
  0x49, 0x64, 0x65, 0x6e, 0x74, 0x69, 0x74, 0x79, 0x00, 0x00, 0x00, 0x00,
  0x02, 0x00, 0x00, 0x00, 0x01, 0x00, 0x00, 0x00, 0x03, 0x00, 0x00, 0x00,
  0xc2, 0xfc, 0xff, 0xff, 0x00, 0x00, 0x00, 0x01, 0x10, 0x00, 0x00, 0x00,
  0x10, 0x00, 0x00, 0x00, 0x0a, 0x00, 0x00, 0x00, 0x44, 0x00, 0x00, 0x00,
  0xac, 0xfc, 0xff, 0xff, 0x34, 0x00, 0x00, 0x00, 0x73, 0x65, 0x71, 0x75,
  0x65, 0x6e, 0x74, 0x69, 0x61, 0x6c, 0x2f, 0x64, 0x65, 0x6e, 0x73, 0x65,
  0x5f, 0x32, 0x2f, 0x4d, 0x61, 0x74, 0x4d, 0x75, 0x6c, 0x3b, 0x73, 0x65,
  0x71, 0x75, 0x65, 0x6e, 0x74, 0x69, 0x61, 0x6c, 0x2f, 0x64, 0x65, 0x6e,
  0x73, 0x65, 0x5f, 0x32, 0x2f, 0x42, 0x69, 0x61, 0x73, 0x41, 0x64, 0x64,
  0x00, 0x00, 0x00, 0x00, 0x02, 0x00, 0x00, 0x00, 0x01, 0x00, 0x00, 0x00,
  0x03, 0x00, 0x00, 0x00, 0x26, 0xfd, 0xff, 0xff, 0x00, 0x00, 0x00, 0x01,
  0x10, 0x00, 0x00, 0x00, 0x10, 0x00, 0x00, 0x00, 0x09, 0x00, 0x00, 0x00,
  0x5c, 0x00, 0x00, 0x00, 0x10, 0xfd, 0xff, 0xff, 0x4c, 0x00, 0x00, 0x00,
  0x73, 0x65, 0x71, 0x75, 0x65, 0x6e, 0x74, 0x69, 0x61, 0x6c, 0x2f, 0x64,
  0x65, 0x6e, 0x73, 0x65, 0x5f, 0x31, 0x2f, 0x4d, 0x61, 0x74, 0x4d, 0x75,
  0x6c, 0x3b, 0x73, 0x65, 0x71, 0x75, 0x65, 0x6e, 0x74, 0x69, 0x61, 0x6c,
  0x2f, 0x64, 0x65, 0x6e, 0x73, 0x65, 0x5f, 0x31, 0x2f, 0x52, 0x65, 0x6c,
  0x75, 0x3b, 0x73, 0x65, 0x71, 0x75, 0x65, 0x6e, 0x74, 0x69, 0x61, 0x6c,
  0x2f, 0x64, 0x65, 0x6e, 0x73, 0x65, 0x5f, 0x31, 0x2f, 0x42, 0x69, 0x61,
  0x73, 0x41, 0x64, 0x64, 0x00, 0x00, 0x00, 0x00, 0x02, 0x00, 0x00, 0x00,
  0x01, 0x00, 0x00, 0x00, 0x0f, 0x00, 0x00, 0x00, 0xa2, 0xfd, 0xff, 0xff,
  0x00, 0x00, 0x00, 0x01, 0x10, 0x00, 0x00, 0x00, 0x10, 0x00, 0x00, 0x00,
  0x08, 0x00, 0x00, 0x00, 0x54, 0x00, 0x00, 0x00, 0x8c, 0xfd, 0xff, 0xff,
  0x46, 0x00, 0x00, 0x00, 0x73, 0x65, 0x71, 0x75, 0x65, 0x6e, 0x74, 0x69,
  0x61, 0x6c, 0x2f, 0x64, 0x65, 0x6e, 0x73, 0x65, 0x2f, 0x4d, 0x61, 0x74,
  0x4d, 0x75, 0x6c, 0x3b, 0x73, 0x65, 0x71, 0x75, 0x65, 0x6e, 0x74, 0x69,
  0x61, 0x6c, 0x2f, 0x64, 0x65, 0x6e, 0x73, 0x65, 0x2f, 0x52, 0x65, 0x6c,
  0x75, 0x3b, 0x73, 0x65, 0x71, 0x75, 0x65, 0x6e, 0x74, 0x69, 0x61, 0x6c,
  0x2f, 0x64, 0x65, 0x6e, 0x73, 0x65, 0x2f, 0x42, 0x69, 0x61, 0x73, 0x41,
  0x64, 0x64, 0x00, 0x00, 0x02, 0x00, 0x00, 0x00, 0x01, 0x00, 0x00, 0x00,
  0x32, 0x00, 0x00, 0x00, 0x16, 0xfe, 0xff, 0xff, 0x00, 0x00, 0x00, 0x01,
  0x10, 0x00, 0x00, 0x00, 0x10, 0x00, 0x00, 0x00, 0x07, 0x00, 0x00, 0x00,
  0x28, 0x00, 0x00, 0x00, 0x00, 0xfe, 0xff, 0xff, 0x19, 0x00, 0x00, 0x00,
  0x73, 0x65, 0x71, 0x75, 0x65, 0x6e, 0x74, 0x69, 0x61, 0x6c, 0x2f, 0x64,
  0x65, 0x6e, 0x73, 0x65, 0x5f, 0x32, 0x2f, 0x4d, 0x61, 0x74, 0x4d, 0x75,
  0x6c, 0x00, 0x00, 0x00, 0x02, 0x00, 0x00, 0x00, 0x03, 0x00, 0x00, 0x00,
  0x0f, 0x00, 0x00, 0x00, 0x5e, 0xfe, 0xff, 0xff, 0x00, 0x00, 0x00, 0x01,
  0x10, 0x00, 0x00, 0x00, 0x10, 0x00, 0x00, 0x00, 0x06, 0x00, 0x00, 0x00,
  0x28, 0x00, 0x00, 0x00, 0x48, 0xfe, 0xff, 0xff, 0x19, 0x00, 0x00, 0x00,
  0x73, 0x65, 0x71, 0x75, 0x65, 0x6e, 0x74, 0x69, 0x61, 0x6c, 0x2f, 0x64,
  0x65, 0x6e, 0x73, 0x65, 0x5f, 0x31, 0x2f, 0x4d, 0x61, 0x74, 0x4d, 0x75,
  0x6c, 0x00, 0x00, 0x00, 0x02, 0x00, 0x00, 0x00, 0x0f, 0x00, 0x00, 0x00,
  0x32, 0x00, 0x00, 0x00, 0xa6, 0xfe, 0xff, 0xff, 0x00, 0x00, 0x00, 0x01,
  0x10, 0x00, 0x00, 0x00, 0x10, 0x00, 0x00, 0x00, 0x05, 0x00, 0x00, 0x00,
  0x24, 0x00, 0x00, 0x00, 0x90, 0xfe, 0xff, 0xff, 0x17, 0x00, 0x00, 0x00,
  0x73, 0x65, 0x71, 0x75, 0x65, 0x6e, 0x74, 0x69, 0x61, 0x6c, 0x2f, 0x64,
  0x65, 0x6e, 0x73, 0x65, 0x2f, 0x4d, 0x61, 0x74, 0x4d, 0x75, 0x6c, 0x00,
  0x02, 0x00, 0x00, 0x00, 0x32, 0x00, 0x00, 0x00, 0x06, 0x00, 0x00, 0x00,
  0xea, 0xfe, 0xff, 0xff, 0x00, 0x00, 0x00, 0x01, 0x10, 0x00, 0x00, 0x00,
  0x10, 0x00, 0x00, 0x00, 0x04, 0x00, 0x00, 0x00, 0x40, 0x00, 0x00, 0x00,
  0xd4, 0xfe, 0xff, 0xff, 0x30, 0x00, 0x00, 0x00, 0x73, 0x65, 0x71, 0x75,
  0x65, 0x6e, 0x74, 0x69, 0x61, 0x6c, 0x2f, 0x64, 0x65, 0x6e, 0x73, 0x65,
  0x2f, 0x42, 0x69, 0x61, 0x73, 0x41, 0x64, 0x64, 0x2f, 0x52, 0x65, 0x61,
  0x64, 0x56, 0x61, 0x72, 0x69, 0x61, 0x62, 0x6c, 0x65, 0x4f, 0x70, 0x2f,
  0x72, 0x65, 0x73, 0x6f, 0x75, 0x72, 0x63, 0x65, 0x00, 0x00, 0x00, 0x00,
  0x01, 0x00, 0x00, 0x00, 0x32, 0x00, 0x00, 0x00, 0x46, 0xff, 0xff, 0xff,
  0x00, 0x00, 0x00, 0x01, 0x10, 0x00, 0x00, 0x00, 0x10, 0x00, 0x00, 0x00,
  0x03, 0x00, 0x00, 0x00, 0x40, 0x00, 0x00, 0x00, 0x30, 0xff, 0xff, 0xff,
  0x32, 0x00, 0x00, 0x00, 0x73, 0x65, 0x71, 0x75, 0x65, 0x6e, 0x74, 0x69,
  0x61, 0x6c, 0x2f, 0x64, 0x65, 0x6e, 0x73, 0x65, 0x5f, 0x31, 0x2f, 0x42,
  0x69, 0x61, 0x73, 0x41, 0x64, 0x64, 0x2f, 0x52, 0x65, 0x61, 0x64, 0x56,
  0x61, 0x72, 0x69, 0x61, 0x62, 0x6c, 0x65, 0x4f, 0x70, 0x2f, 0x72, 0x65,
  0x73, 0x6f, 0x75, 0x72, 0x63, 0x65, 0x00, 0x00, 0x01, 0x00, 0x00, 0x00,
  0x0f, 0x00, 0x00, 0x00, 0xa2, 0xff, 0xff, 0xff, 0x00, 0x00, 0x00, 0x01,
  0x10, 0x00, 0x00, 0x00, 0x10, 0x00, 0x00, 0x00, 0x02, 0x00, 0x00, 0x00,
  0x40, 0x00, 0x00, 0x00, 0x8c, 0xff, 0xff, 0xff, 0x32, 0x00, 0x00, 0x00,
  0x73, 0x65, 0x71, 0x75, 0x65, 0x6e, 0x74, 0x69, 0x61, 0x6c, 0x2f, 0x64,
  0x65, 0x6e, 0x73, 0x65, 0x5f, 0x32, 0x2f, 0x42, 0x69, 0x61, 0x73, 0x41,
  0x64, 0x64, 0x2f, 0x52, 0x65, 0x61, 0x64, 0x56, 0x61, 0x72, 0x69, 0x61,
  0x62, 0x6c, 0x65, 0x4f, 0x70, 0x2f, 0x72, 0x65, 0x73, 0x6f, 0x75, 0x72,
  0x63, 0x65, 0x00, 0x00, 0x01, 0x00, 0x00, 0x00, 0x03, 0x00, 0x00, 0x00,
  0x00, 0x00, 0x16, 0x00, 0x18, 0x00, 0x14, 0x00, 0x00, 0x00, 0x10, 0x00,
  0x0c, 0x00, 0x08, 0x00, 0x00, 0x00, 0x00, 0x00, 0x00, 0x00, 0x07, 0x00,
  0x16, 0x00, 0x00, 0x00, 0x00, 0x00, 0x00, 0x01, 0x14, 0x00, 0x00, 0x00,
  0x14, 0x00, 0x00, 0x00, 0x01, 0x00, 0x00, 0x00, 0x1c, 0x00, 0x00, 0x00,
  0x04, 0x00, 0x04, 0x00, 0x04, 0x00, 0x00, 0x00, 0x0b, 0x00, 0x00, 0x00,
  0x64, 0x65, 0x6e, 0x73, 0x65, 0x5f, 0x69, 0x6e, 0x70, 0x75, 0x74, 0x00,
  0x02, 0x00, 0x00, 0x00, 0x01, 0x00, 0x00, 0x00, 0x06, 0x00, 0x00, 0x00,
  0x02, 0x00, 0x00, 0x00, 0x20, 0x00, 0x00, 0x00, 0x04, 0x00, 0x00, 0x00,
  0xf4, 0xff, 0xff, 0xff, 0x19, 0x00, 0x00, 0x00, 0x00, 0x00, 0x00, 0x19,
  0x0c, 0x00, 0x0c, 0x00, 0x0b, 0x00, 0x00, 0x00, 0x00, 0x00, 0x04, 0x00,
  0x0c, 0x00, 0x00, 0x00, 0x09, 0x00, 0x00, 0x00, 0x00, 0x00, 0x00, 0x09
};
unsigned int converted_model_noquant_tflite_len = 6516;
